/**
  ******************************************************************************
  * @file    network_data_params.c
  * @author  AST Embedded Analytics Research Platform
  * @date    2025-10-31T19:02:37+0530
  * @brief   AI Tool Automatic Code Generator for Embedded NN computing
  ******************************************************************************
  * Copyright (c) 2025 STMicroelectronics.
  * All rights reserved.
  *
  * This software is licensed under terms that can be found in the LICENSE file
  * in the root directory of this software component.
  * If no LICENSE file comes with this software, it is provided AS-IS.
  ******************************************************************************
  */

#include "network_data_params.h"


/**  Activations Section  ****************************************************/
ai_handle g_network_activations_table[1 + 2] = {
  AI_HANDLE_PTR(AI_MAGIC_MARKER),
  AI_HANDLE_PTR(NULL),
  AI_HANDLE_PTR(AI_MAGIC_MARKER),
};




/**  Weights Section  ********************************************************/
AI_ALIGNED(32)
const ai_u64 s_network_weights_array_u64[754] = {
  0x3d690000be9a0000U, 0x3cb60000be990000U, 0xbda70000be570000U, 0xbe360000bdc50000U,
  0xbd730000be780000U, 0xbdee0000be820000U, 0x3c7300003e920000U, 0x3e2f00003d4a0000U,
  0xbe6100003e7b0000U, 0xbbf300003dbb0000U, 0x3cdf0000bdca0000U, 0xbe570000be270000U,
  0xbe0e0000be870000U, 0xbb220000bd0e0000U, 0xbe7800003cca0000U, 0xbe500000bbf30000U,
  0xbe2500003e890000U, 0xbdac00003cf30000U, 0x3e3e00003e4a0000U, 0xbe0e00003da20000U,
  0x3d0e00003dac0000U, 0x3e9f0000bdd50000U, 0xbe800000bea20000U, 0xbe660000bdd50000U,
  0xbe1000003d2c0000U, 0x3e040000bd4a0000U, 0x3d5500003e690000U, 0xbd0e0000be400000U,
  0xbc730000be390000U, 0xbcca0000bdee0000U, 0xbe500000bdc00000U, 0x3e360000be700000U,
  0xbe7800003e060000U, 0x3e7800003dca0000U, 0x3e1a0000bea20000U, 0x3e9700003e730000U,
  0xbe2200003cb60000U, 0x3d220000be060000U, 0xbe860000bdd00000U, 0xbe7b0000bda70000U,
  0x3d5f00003cdf0000U, 0x3db60000bde40000U, 0xbd730000bc8e0000U, 0x3cb600003ba20000U,
  0xbdda0000bd9d0000U, 0x3e9f0000be9e0000U, 0x3e250000be550000U, 0xbe8000003e9d0000U,
  0xbe8100003d730000U, 0x3e5a00003e4a0000U, 0x3dee0000be660000U, 0xbe130000be850000U,
  0x3d7d0000be100000U, 0x3e3600003dda0000U, 0xbe8400003e250000U, 0x3e570000bd7d0000U,
  0xbdca00003db10000U, 0xbe5a0000bd730000U, 0x3e7300003dee0000U, 0xbe4000003e850000U,
  0xbd5f00003e8f0000U, 0x3d4a00003e4d0000U, 0x3e6e00003d180000U, 0x3d5f0000be640000U,
  0x3e8700003d4a0000U, 0xbea200003cb60000U, 0xbc8e00003dbb0000U, 0x3d9d0000be6b0000U,
  0x3e2c0000bde40000U, 0x3e4800003e8b0000U, 0x3d730000be8e0000U, 0x3e640000be180000U,
  0xbd8e00003d040000U, 0xbcca00003e4d0000U, 0x3e900000be920000U, 0xbc730000bdb10000U,
  0x3e220000bea20000U, 0x3e8c00003e3b0000U, 0x3e6600003d400000U, 0xbe920000be2c0000U,
  0xbe8900003dfd0000U, 0x3e2f00003e040000U, 0x3dbb0000bde40000U, 0x3e9c00003e6b0000U,
  0x3d6900003e430000U, 0x3e920000bba20000U, 0xbe800000be550000U, 0xbe0100003e400000U,
  0x3e400000be940000U, 0x3e9c0000be690000U, 0x3dac00003e6b0000U, 0xbdda0000be5a0000U,
  0x3e150000bda70000U, 0xbe6900003dd50000U, 0xbde40000be1f0000U, 0x3e870000be520000U,
  0xbd9d0000bd400000U, 0x3e04000000000000U, 0x3e9e00003d040000U, 0x3e4a00003ddf0000U,
  0x3e8000003e8c0000U, 0x3dc50000bcf30000U, 0x3e4d0000bb220000U, 0xbe8a00003e690000U,
  0xbe9a00003e480000U, 0x3d550000be5a0000U, 0x3e920000be9a0000U, 0xbd7d00003e920000U,
  0xbdc00000be1d0000U, 0xbe2f0000be150000U, 0xbe2500003e360000U, 0xbe820000be6b0000U,
  0x3ddf00003e250000U, 0x3bf300003dac0000U, 0x3e660000bea20000U, 0xbe040000be5c0000U,
  0xbda200003e450000U, 0xbe8100003e930000U, 0xbe8400003e8c0000U, 0x3d180000bd930000U,
  0x3e5200003d980000U, 0xbda20000be100000U, 0x3e870000bdee0000U, 0x3de40000bba20000U,
  0xbe5000003e480000U, 0x3e4d00003c8e0000U, 0x3e5000003e3e0000U, 0xbda20000be480000U,
  0xbd8400003e690000U, 0x3d8900003e920000U, 0x3d840000be890000U, 0xbe4500003d040000U,
  0xbe8e00003e0b0000U, 0xbdee0000be8b0000U, 0xbdfd00003e130000U, 0xbe8a0000be550000U,
  0x3e9c0000be840000U, 0x3e8600003e800000U, 0xbde400003e2c0000U, 0xbe760000bde40000U,
  0xbe4a0000be0e0000U, 0xbe1f0000bea20000U, 0xbe5500003e500000U, 0x3b220000bd9d0000U,
  0x3cf30000bdfd0000U, 0xbcb60000be5a0000U, 0x3e2700003e6e0000U, 0xbd840000be250000U,
  0x3cca0000be500000U, 0x3e780000bdc50000U, 0x3e8a0000be3e0000U, 0xbdac0000be610000U,
  0xbe8f0000be980000U, 0x3d9d00003e5c0000U, 0x3e800000be130000U, 0x3e5c0000bd8e0000U,
  0x3da2000000000000U, 0xbe3b00003e0b0000U, 0xbe9c0000bd0e0000U, 0x3da200003e500000U,
  0x3e800000bd360000U, 0xbe7d00003e9c0000U, 0x3d8e00003e2f0000U, 0x3e9d00003dd00000U,
  0xbe610000bdb60000U, 0xbe8900003e6e0000U, 0xbe990000bdbb0000U, 0x3d8900003e1d0000U,
  0x3e8700003e520000U, 0x3e870000bd9d0000U, 0xbdd00000be8a0000U, 0xbe1000003dc50000U,
  0xbe9800003e9e0000U, 0x3cb600003cdf0000U, 0x3d840000be0e0000U, 0xbe5f0000be060000U,
  0xbdce00003daa0000U, 0x3c9e0000bda10000U, 0x3e3200003e0c0000U, 0x3c4c0000bdf60000U,
  0x3daf0000bd8d0000U, 0xbdb500003d510000U, 0x3ddd0000be200000U, 0x3e2000003dcc0000U,
  0x3d930000bdc60000U, 0xbc1e00003df90000U, 0xbdaa0000be040000U, 0x3be200003dcc0000U,
  0xbd9300003e010000U, 0x3d3500003e010000U, 0x3e3100003dce0000U, 0xbe060000bdce0000U,
  0xbda40000bddd0000U, 0x3e2b0000be310000U, 0x3e2f0000bd900000U, 0xbd680000be310000U,
  0x3e1c0000bcd70000U, 0x3c7900003d400000U, 0xbcd70000bd9e0000U, 0x3e090000bce20000U,
  0x3d4000003e2d0000U, 0x3c4c00003d7f0000U, 0x3e3400003d620000U, 0xbd2a00003d9e0000U,
  0xbdfc0000bc620000U, 0x3e0f00003d9e0000U, 0x3dc300003dc00000U, 0xbe060000bd900000U,
  0x3daa00003d3b0000U, 0x3c6200003daa0000U, 0x3c930000bd680000U, 0x3deb0000be100000U,
  0x3e0800003d130000U, 0xbd1300003ccc0000U, 0xbd080000bdd10000U, 0xbe1700003db50000U,
  0x3e100000bdfc0000U, 0xbe0d0000bd510000U, 0x3d8800003d9c0000U, 0xbc930000bda10000U,
  0x3dfc0000bdbd0000U, 0x3d7f00003e050000U, 0x3be20000be1d0000U, 0x3d7300003e1e0000U,
  0xbe160000bdb50000U, 0x3d2a0000be310000U, 0xbd5700003d2f0000U, 0x3da100003d020000U,
  0xbdf600003d820000U, 0xbe1d0000bde50000U, 0x3dff00003e0b0000U, 0xbe1e0000bd8d0000U,
  0x3df000003caa0000U, 0x3dcc0000bc880000U, 0xbd350000be2b0000U, 0xbdaf0000bcee0000U,
  0xbc4c00003d020000U, 0xbc1e0000bd900000U, 0x3be20000bd4c0000U, 0xbd5d0000be020000U,
  0xbddd00003da10000U, 0xbd2a0000bbe20000U, 0xbde50000bd2a0000U, 0xbddf00003c1e0000U,
  0x3e130000bd2f0000U, 0xbd350000bd2f0000U, 0x3da100003e0b0000U, 0xbd240000be0c0000U,
  0x3ddf0000bdad0000U, 0x3d620000bd3b0000U, 0xbdfc0000bdaf0000U, 0x3dc900003d080000U,
  0x3e1e00003dda0000U, 0x3deb0000bdaf0000U, 0xbd7f0000bdf90000U, 0x3ccc00003e210000U,
  0xbe3500003d9e0000U, 0x3c9e00003c790000U, 0x3e3100003dce0000U, 0x3dc300003e160000U,
  0x3dc900003dd10000U, 0xbe2a0000be320000U, 0x3e160000bd850000U, 0x3c9e00003da10000U,
  0x3de800003e090000U, 0xbe1a00003d570000U, 0x3da10000bd730000U, 0x3e2b00003dcc0000U,
  0xbd730000bdaf0000U, 0xbd4c0000bdeb0000U, 0xbbb50000be100000U, 0x3c6200003dce0000U,
  0xbdd700003dfc0000U, 0x3dc300003e0c0000U, 0x3e010000bd2f0000U, 0xbde80000be170000U,
  0x3e0800003d2f0000U, 0xbe0b0000bcb50000U, 0x3da100003dd10000U, 0x3d6e0000bdff0000U,
  0x3dc600003d7f0000U, 0xbdff0000bdaa0000U, 0xbd1e00003c4c0000U, 0x3c4c0000bc620000U,
  0xbdd70000bbb50000U, 0xbc7900003e090000U, 0x3daa0000be210000U, 0xbb8800003c790000U,
  0x3dd10000bdee0000U, 0xbd1300003dcc0000U, 0xbe200000bbb50000U, 0xbe2f00003db50000U,
  0x3df90000bd130000U, 0xbcb500003e310000U, 0x3dbb0000be160000U, 0xbd8200003dc30000U,
  0xbcaa0000bc930000U, 0x3caa0000be060000U, 0x3df900003de50000U, 0x3e1900003d8b0000U,
  0xbcee00003d570000U, 0x3be20000bdeb0000U, 0xbdf600003dee0000U, 0x3be200003e250000U,
  0x3d1e00003d1e0000U, 0x3c080000bdeb0000U, 0xbd620000be1a0000U, 0x3d0800003cee0000U,
  0x3b880000bdb20000U, 0x3dc30000bd620000U, 0xbe0c00003de20000U, 0x3e2a00003ddf0000U,
  0xbdd700003e240000U, 0x3cf90000bc790000U, 0x3d9c00003ce20000U, 0x3dda0000bc4c0000U,
  0xbdf600003e140000U, 0x3d1e00003d820000U, 0x3b8800003dfc0000U, 0xbd8800003ddf0000U,
  0xbdaf00003e1e0000U, 0xbd460000bd930000U, 0xbc7900003d900000U, 0x3d9e0000bc9e0000U,
  0x3cb50000bccc0000U, 0xbe2a0000bdd10000U, 0x3d350000bcd70000U, 0x3d8200003b880000U,
  0xbdcc00003e0d0000U, 0xbc930000bddf0000U, 0xbd8d0000be130000U, 0x3da10000bd240000U,
  0xbdd400003cd70000U, 0xbe2e0000be160000U, 0x3d880000bd9c0000U, 0x3dfc00003d240000U,
  0x3e0c00003ce20000U, 0xbe2b0000bdeb0000U, 0xbe060000be230000U, 0x3de80000be010000U,
  0x3d1900003d3b0000U, 0xbe1600003cd70000U, 0x3d820000bdf90000U, 0x3d9c00003d130000U,
  0xbdbd0000bb350000U, 0x3c350000bcd70000U, 0x3e140000bd020000U, 0x3d820000bdc60000U,
  0xbe090000bd350000U, 0xbe0f00003dc60000U, 0xbe140000be140000U, 0xbd400000bdeb0000U,
  0x3e2500003c1e0000U, 0xbd9c00003df90000U, 0xbd1900003d1e0000U, 0x3d8800003e040000U,
  0x3d3b0000bdc60000U, 0x3d190000bde80000U, 0xbd2f00003dbb0000U, 0x3e130000bd8d0000U,
  0xbdc000003dc60000U, 0x3d570000be100000U, 0xbddd00003e0d0000U, 0xbab500003de50000U,
  0xbe0f00003d620000U, 0xbe0d00003deb0000U, 0x3d620000bdad0000U, 0xbe1e00003e1e0000U,
  0x3d8b00003caa0000U, 0xbd5d0000bb350000U, 0xbc7900003dce0000U, 0xbdee0000be040000U,
  0xbdee00003ccc0000U, 0xbdf000003d900000U, 0xbde500003e270000U, 0x3d6800003d240000U,
  0xbe1300003e100000U, 0xbdc600003db20000U, 0xbd620000bdc30000U, 0x3d8b00003dee0000U,
  0x3da40000bdf30000U, 0x3dda0000bdaf0000U, 0xbd9e00003e340000U, 0x3d2400003e1c0000U,
  0x3d9c0000bd080000U, 0xbc4c00003d850000U, 0xbe140000bbe20000U, 0xbe060000bd6e0000U,
  0x3e320000be2e0000U, 0x3cee0000bd7f0000U, 0xbd7900003c9e0000U, 0xbe130000be2a0000U,
  0xbd5d00003dd70000U, 0xbdc000003db20000U, 0x3d9c0000bd0d0000U, 0x3de500003da40000U,
  0x3d6e0000bd350000U, 0xbdda00003d350000U, 0x3e170000be350000U, 0x3db500003dc60000U,
  0x3dbd0000be100000U, 0xbd080000be2f0000U, 0x3dc90000be0b0000U, 0xbc1e00003ce20000U,
  0x3d0200003dad0000U, 0x3e0500003d190000U, 0xbdc90000bb880000U, 0xbdfc0000be120000U,
  0xbd900000bd9c0000U, 0xbcee0000bd900000U, 0x3c1e00003c350000U, 0x3e1c0000bdaa0000U,
  0x3e170000be080000U, 0x3e310000bdc30000U, 0xbe340000be310000U, 0xbe320000bdc00000U,
  0xbe2700003d460000U, 0xbe1c0000be240000U, 0x3da100003cb50000U, 0xbdce00003d080000U,
  0xbd5100003e1e0000U, 0xbddd0000bcd70000U, 0xbcd70000be230000U, 0x3db800003ddd0000U,
  0xbddd0000bdfc0000U, 0x3e1600003e040000U, 0xbe0600003df00000U, 0x3c790000bd190000U,
  0xbd400000be2a0000U, 0x3d8800003daf0000U, 0x3ddd0000bcaa0000U, 0x3e130000be0d0000U,
  0xbe0c00003d850000U, 0xbd350000bccc0000U, 0xbd2a0000bd960000U, 0xbddf0000bc080000U,
  0x3d8b0000bcd70000U, 0xbdc00000bd2a0000U, 0xbd350000bde20000U, 0xbddf0000bc790000U,
  0x3d7f0000be0c0000U, 0x3e3400003bb50000U, 0x3d5100003b350000U, 0xbd8d0000bc790000U,
  0xbc620000bd080000U, 0xbccc0000bdeb0000U, 0xbc8800003d8d0000U, 0x3d190000be0f0000U,
  0xbc790000bde20000U, 0x3e0b00003c620000U, 0xbe10000000000000U, 0xbdc90000bdaa0000U,
  0xbe3100003ddd0000U, 0x3d9c0000bc790000U, 0xbdce00003e270000U, 0xbdfc00003e0c0000U,
  0xbe0500003d400000U, 0x3e1d00003d400000U, 0xbe0d00003d2f0000U, 0x3dfc0000bcc00000U,
  0xbd0200003d730000U, 0x3c1e00003e280000U, 0x3cee0000bdf30000U, 0xbdf30000be2d0000U,
  0x3dee00003c080000U, 0xbe2700003df90000U, 0xbe3100003c930000U, 0xbd820000bd570000U,
  0x3e010000be160000U, 0xbd400000bdc60000U, 0x3dce00003e080000U, 0xbd0d00003e100000U,
  0xbd0800003da70000U, 0x3e160000bddf0000U, 0x3cb50000bdfc0000U, 0x3d080000bdda0000U,
  0xbc4c00003c620000U, 0xbdce00003d9e0000U, 0xbe1c0000bd080000U, 0x3ce200003d0d0000U,
  0xbe170000bdf30000U, 0xbdc00000be310000U, 0x3d5d0000bd3b0000U, 0xbe0c00003daa0000U,
  0xbdb500003e130000U, 0xbd6200003ccc0000U, 0xbdce0000bd8b0000U, 0x3dc30000bdcc0000U,
  0x3e2b0000bd460000U, 0xbcb50000bdfc0000U, 0xbe1400003e0b0000U, 0x3db20000be210000U,
  0x3c350000bdbd0000U, 0xbcb500003e090000U, 0xbc1e0000bd460000U, 0xbdb500003e020000U,
  0x3db50000bd080000U, 0xbd730000bdc90000U, 0xbda10000bda70000U, 0x3b3500003c1e0000U,
  0xbe280000bcc00000U, 0x3e1e0000bdc30000U, 0xbd6200003e010000U, 0x3b8800003d8d0000U,
  0x3b880000bccc0000U, 0x3e0d00003d020000U, 0x3df900003dfc0000U, 0xbe1e0000bd2f0000U,
  0x3d9c00003deb0000U, 0x3d8500003d960000U, 0x3b880000be2d0000U, 0xbd5d00003dd10000U,
  0xbc880000be1c0000U, 0x3d240000be210000U, 0xbe280000bc9e0000U, 0xbdd10000be1d0000U,
  0x3db800003e130000U, 0x3e020000be120000U, 0xbe3200003e210000U, 0xbdf900003d9e0000U,
  0x3d1300003e0b0000U, 0xbe130000bb350000U, 0xbcee00003dc90000U, 0x3b880000bd080000U,
  0x3e2e0000be130000U, 0xbd880000bdb50000U, 0xbd8500003dee0000U, 0xbcc00000bb350000U,
  0x3d960000bd680000U, 0xbdd700003e320000U, 0x3d4c00003be20000U, 0x3d3500003e280000U,
  0xbdf90000bd400000U, 0x3da10000bda70000U, 0x3da700003d8d0000U, 0x3d850000be160000U,
  0xbb880000bb350000U, 0x3c8800003de50000U, 0x3dbd0000be0d0000U, 0xbb350000be310000U,
  0x3e0600003dc60000U, 0x3d820000bc1e0000U, 0x3d930000bc620000U, 0x3e2b00003d850000U,
  0xbdb200003d730000U, 0xbd3500003dd40000U, 0x3e130000bd7f0000U, 0x3d680000bd680000U,
  0xbab500003e160000U, 0xbda100003c4c0000U, 0x3e120000be0c0000U, 0x3dfc00003d4c0000U,
  0x3da10000bc790000U, 0xbe1a00003d240000U, 0xbe1000003c4c0000U, 0xbe0d0000bdbb0000U,
  0x3ab50000bddf0000U, 0xbb3500003e280000U, 0x3e270000bdaa0000U, 0xbd8500003e080000U,
  0x3dff0000bdaf0000U, 0xbe1c00003ddf0000U, 0xbc7900003d130000U, 0xbdaf0000bbb50000U,
  0xbd7300003dad0000U, 0xbe0c00003c9e0000U, 0x3d9c0000be1d0000U, 0xbdf900003d080000U,
  0xbd5100003e080000U, 0xbdaa0000bddd0000U, 0xbdce00003d0d0000U, 0xbb880000bd460000U,
  0x3d3b0000bd2f0000U, 0x3d4000003dd10000U, 0xbd1300003c9e0000U, 0xbd8500003c350000U,
  0xbdc90000be310000U, 0xbe310000bda70000U, 0xbe0900003d2f0000U, 0xbdc00000bcb50000U,
  0x3dd10000be080000U, 0x3c4c0000bd990000U, 0x3d6200003ccc0000U, 0xbbe200003dbb0000U,
  0x3d6800003d900000U, 0xbdaf0000bdc00000U, 0xbbb500003ddf0000U, 0xbe1e00003d680000U,
  0x3dce0000bde20000U, 0xbdf90000bc4c0000U, 0x3d7f00003d510000U, 0x3db50000bcaa0000U,
  0xbd8d00003e250000U, 0xbde800003d790000U, 0xbd730000bcd70000U, 0x3d960000be350000U,
  0xbc9e00003d9e0000U, 0x3dbd0000be340000U, 0x3e0c00003e2b0000U, 0x3ddf00003c350000U,
  0x3d8b0000bd460000U, 0xbdcc00003d8d0000U, 0xbcf90000bd9e0000U, 0xbc880000bc930000U,
  0xbe280000bd020000U, 0xbe2a00003d3b0000U, 0x3ccc00003e040000U, 0x3cd700003d620000U,
  0x3deb0000bd820000U, 0xbe040000bc4c0000U, 0xbd190000bcf90000U, 0xbe020000bbb50000U,
  0x3d9000003e1e0000U, 0xbe2400003d400000U, 0xbc790000bd1e0000U, 0xbd2f0000bd960000U,
  0x3df00000bdbb0000U, 0xbd790000bd1e0000U, 0x3e0400003db80000U, 0xbe2e0000bc4c0000U,
  0x3dbb00003de50000U, 0x3d7300003e090000U, 0xbe2e0000be2b0000U, 0xbe1a0000bdad0000U,
  0x3e040000bc790000U, 0x3d7f00003ce20000U, 0x3e2e0000bdad0000U, 0xbd4000003e240000U,
  0x3de800003de20000U, 0x3d2a0000bd9c0000U, 0x3e2a00003d790000U, 0xbe0c00003e160000U,
  0xbe0f0000bd460000U, 0xbde200003dbb0000U, 0x3da70000bdeb0000U, 0xbd2f0000be350000U,
  0x3c1e00003e090000U, 0x3d6800003da70000U, 0xbd6e0000bcf90000U, 0xbdd70000bdf30000U,
  0x3e1e00003e210000U, 0xbda70000bd0d0000U, 0xbe2d0000bdc00000U, 0xbe0d0000be350000U,
  0x3d2f00003d130000U, 0x3de80000be280000U, 0xbda100003e010000U, 0x3e310000U,
  0xbe120000bd1e0000U, 0x3e2a0000bd790000U, 0xbe1e0000be060000U, 0xbe1600003e050000U,
  0x3ddf0000be1a0000U, 0xbc080000be130000U, 0xbe190000be130000U, 0x3de50000be190000U,
  0x3df300003bb50000U, 0xbddd0000bc9e0000U, 0x3e050000bdf00000U, 0xbe2f00003d5d0000U,
  0xbd2a0000bdc00000U, 0xbd5d0000bdc60000U, 0xbe0800003e0b0000U, 0xbdb500003d850000U,
  0x3e0800003e2e0000U, 0xbdf60000bdb80000U, 0xbd4c0000bd1e0000U, 0x3deb00003e1a0000U,
  0x3df00000be190000U, 0xbdd100003c620000U, 0x3df900003e310000U, 0x3d7f00003c930000U,
  0x3df300003dc60000U, 0xbe1d0000bddd0000U, 0x3ddf0000bdd70000U, 0xbdcc0000bd900000U,
  0x3e2e00003b350000U, 0xbdee00003ce20000U, 0x3e0800003d130000U, 0xbe3200003dff0000U,
  0x3e2f0000bd190000U, 0x3ce20000bdc90000U, 0xbd9c0000bd570000U, 0xbd0200003d930000U,
  0xbe130000bdd40000U, 0x3c9e0000be200000U, 0x3d3500003e1d0000U, 0xbdf300003e0f0000U,
  0x3d240000bd930000U, 0xbd2a00003d930000U, 0x3dc300003dce0000U, 0x3de200003e270000U,
  0x3e0900003dbb0000U, 0x3df00000be120000U, 0x3e120000bcaa0000U, 0x3e1d0000bdf00000U,
  0x3dd10000bd6e0000U, 0x3ccc00003e1e0000U, 0x3dd40000bcf90000U, 0x3e0d0000bc620000U,
  0xbe190000be100000U, 0xbdd400003e060000U, 0xbd900000be320000U, 0x3d8b0000bbe20000U,
  0x3d0800003c790000U, 0xbd1300003d790000U, 0x3d7900003d820000U, 0x3dff0000bdad0000U,
  0xbdbb00003d900000U, 0xbd900000be140000U, 0x3d400000bdb50000U, 0x3d4c0000bdc30000U,
  0xbc880000be250000U, 0xbd4c0000bdb20000U, 0x3cb50000bde20000U, 0x3e310000bcaa0000U,
  0x3d4c0000bcf90000U, 0x3dd70000bc080000U, 0xbd6800003dd40000U, 0xbdaf0000bdaa0000U,
  0x3d9300003dc30000U, 0xbe020000bdda0000U, 0xbdc90000bd400000U, 0x3dad00003daa0000U,
  0xbdb50000bd850000U, 0xbc9e00003dc30000U, 0x3e170000bd460000U, 0x3caa00003de20000U,
  0x3da400003e140000U, 0xbe320000bd570000U, 0x3c9e0000be2d0000U, 0xbbe200003c350000U,
  0x3c1e0000be090000U, 0xbdee00003da10000U, 0xbd2a0000bd190000U, 0xbd9e00003d7f0000U,
  0xbe0b0000bda70000U, 0x3e0d00003e170000U, 0x3c9e00003d4c0000U, 0x3dc90000bbe20000U,
  0xbda40000bd990000U, 0xbd1e0000bdaf0000U, 0x3db800003d020000U, 0xbd820000bd130000U,
  0x3db80000bde20000U, 0xbccc00003d880000U, 0x3ab50000be170000U, 0x3df000003c080000U,
  0xbe350000bab50000U, 0x3dff0000bc880000U, 0xbdbb00003d620000U, 0x3c4c0000bd960000U,
  0x3dc60000bd0d0000U, 0x3e320000U,
};


ai_handle g_network_weights_table[1 + 2] = {
  AI_HANDLE_PTR(AI_MAGIC_MARKER),
  AI_HANDLE_PTR(s_network_weights_array_u64),
  AI_HANDLE_PTR(AI_MAGIC_MARKER),
};

